g
r
h
p
m
w
u
a
t
i
j
e
f
v
y
s
z
b
l
c
q
o
k
n
x
d
</w>
e</w>
th
s</w>
t</w>
d</w>
r</w>
an
y</w>
o</w>
ou
n</w>
in
l</w>
er
the</w>
and</w>
ha
er</w>
ea
en
is</w>
f</w>
ll</w>
or
i</w>
a</w>
you
to</w>
on
no
ar
es
th</w>
om
wi
of</w>
g</w>
in</w>
ve</w>
ti
at</w>
you</w>
es</w>
ed</w>
the
us</w>
h</w>
ing</w>
m</w>
on</w>
w</w>
k</w>
lo
hi
my</w>
li
it</w>
me</w>
or</w>
le
st
ma
that</w>
la
st</w>
an</w>
en</w>
ca
not</w>
ri
ce</w>
he</w>
ra
si
ld</w>
as</w>
wh
se</w>
ch</w>
ere</w>
di
ur
se
ro
re
bu
be
with</w>
gh
thou
for</w>
un
be</w>
but</w>
ay</w>
this</w>
his</w>
ke</w>
le</w>
com
ho
ta
have</w>
your</w>
fa
ter</w>
let</w>
wha
we
ru
what</w>
thou</w>
go
hea
ly</w>
so</w>
ght</w>
him</w>
et</w>
will</w>
sp
do</w>
sha
at
de
for
ther</w>
ould</w>
rom
our</w>
p</w>
sa
vi
now</w>
ds</w>
mi
rea
ts</w>
do
are</w>
sh
ag
ord</w>
fi
od</w>
qu
all</w>
su
one</w>
ar</w>
mo
ll
shall</w>
ol
no</w>
we</w>
ess</w>
by</w>
her</w>
ear</w>
ant
ex
mor
mu
ck</w>
thy</w>
con
me
if</w>
come</w>
whi
est</w>
mar
ir</w>
ne
ent</w>
thee</w>
lord</w>
ers</w>
al
sc
po
wn</w>
de</w>
ty</w>
ch
am</w>
anton
bo
to
well</w>
wor
oun
caes
ver
caesar</w>
from
from</w>
man</w>
ni
ear
good</w>
gi
dy</w>
tion</w>
how</w>
ci
op
ham
sel
there</w>
here</w>
enter</w>
el
love</w>
pa
more</w>
which</w>
ver</w>
ine</w>
she</w>
par
te
ence</w>
was</w>
go</w>
they</w>
te</w>
hamlet</w>
mon
ssi
som
ba
would</w>
mac
ble</w>
antony</w>
up
then</w>
when</w>
ge</w>
out</w>
gu
did</w>
lea
des
ce
end</w>
ent
du
self</w>
king</w>
tru
ir
der</w>
ure</w>
ing
gh</w>
pp
ous</w>
hath</w>
dea
their</w>
pu
is
should</w>
them</w>
upon</w>
hear
say</w>
of
know</w>
ant</w>
har
ind</w>
tt
fe
than</w>
cassi
loo
fir
fri
very</w>
like</w>
ven</w>
cu
pro
gra
must</w>
most</w>
tus</w>
mark</w>
pla
ves</w>
mp
may</w>
spea
our
where</w>
ry</w>
thing</w>
make</w>
macbe
macbeth</w>
fe</w>
ju
way</w>
some</w>
bru
ani
fu
give</w>
yet</w>
night</w>
fore</w>
such</w>
sen
ws</w>
llo</w>
al</w>
brutus</w>
ink</w>
othe
othello</w>
see</w>
tis</w>
ee
sir</w>
pi
pr
ac
id</w>
men</w>
ob
sw
por
ey
why</w>
thes
om</w>
ere
speak</w>
sh</w>
had</w>
low</w>
lady</w>
ose</w>
tio</w>
can</w>
ks</w>
cle
any</w>
ago</w>
per
iago</w>
ser
ted</w>
pe
pra
were</w>
cleop
cleopat
cleopatr
cleopatra</w>
sti
tter</w>
hor
oc
war
take</w>
who</w>
first</w>
aga
ius</w>
time</w>
na
mb
unt</w>
hon
ings</w>
ven
he
rome
son</w>
romeo</w>
too</w>
wa
exe
think</w>
str
ved</w>
ance</w>
ound</w>
up</w>
der
these</w>
other</w>
ss
mine</w>
look</w>
much</w>
ab
mer
tri
exeunt</w>
ong</w>
lu
ss</w>
tell</w>
da
day</w>
nor</w>
gent
row</w>
octa
octavi
her
vo
hear</w>
grea
fo
ness</w>
ga
can
ger</w>
ince</w>
death</w>
exit</w>
heart</w>
never</w>
char
ys</w>
af
porti
so
tur
co
ate</w>
lt</w>
ld
han
sed</w>
lia</w>
portia</w>
father</w>
ten
een</w>
with
use</w>
tes</w>
swe
ring</w>
ons</w>
tch</w>
demon
scen
hu
ears</w>
desdemon
desdemona</w>
queen</w>
kno
cassius</w>
cassio</w>
scene</w>
lau
ban
ment</w>
see
doth</w>
art</w>
men
ep</w>
rou
pri
urse</w>
arb
blo
bl
octavius</w>
ck
coun
done</w>
fear</w>
tun
pray</w>
made</w>
away</w>
sle
great</w>
brea
deed</w>
gue</w>
again</w>
c</w>
hora
horatio</w>
heaven</w>
ter
ge
iti
ster</w>
ms</w>
mes
eyes</w>
fair</w>
hand</w>
tw
ice</w>
anio</w>
ded</w>
ree</w>
hel
erefore</w>
fol
pre
tra
comes</w>
app
mad
part</w>
ct</w>
il</w>
ps</w>
hou
own</w>
bra
stand</w>
lock</w>
dom
sea
enob
enobarb
onius</w>
true</w>
ff</w>
before</w>
enobarbus</w>
dius</w>
world</w>
sweet</w>
wom
leave</w>
ful</w>
hold</w>
life</w>
thus</w>
dead</w>
cannot</w>
mur
ends</w>
sure</w>
lor
ding</w>
juli
chi
ill</w>
yself</w>
pur
nurse</w>
nothing</w>
ins</w>
tu
down</w>
domiti
domitius</w>
plea
your
sal
clo
both</w>
qui
oul</w>
lls</w>
ses</w>
io</w>
kes</w>
could</w>
ef</w>
dra
therefore</w>
nat
fortun
je
sol
fl
noble</w>
ls</w>
house</w>
within</w>
pol
san
ran
pres
bass
bassanio</w>
juliet</w>
res
hast</w>
shi
